#include "cnn_k3_f8_l3_data.h"

ai_handle ai_cnn_k3_f8_l3_data_weights_get(void)
{

  AI_ALIGNED(4)
  static const ai_u8 s_cnn_k3_f8_l3_weights[ 6932 ] = {
    0x66, 0x85, 0x24, 0x3d, 0xdd, 0xbf, 0x87, 0x3d, 0x79, 0xff,
    0x76, 0x3d, 0xdb, 0xde, 0x4e, 0x3d, 0xd8, 0x64, 0x57, 0xbd,
    0x53, 0xd1, 0xc5, 0xbb, 0x0b, 0x0e, 0xb3, 0x3b, 0x2d, 0x8a,
    0x8c, 0xbd, 0x2d, 0xb2, 0xe0, 0x3c, 0x6e, 0x3f, 0xec, 0xbc,
    0x0d, 0x73, 0x58, 0x3d, 0x47, 0xa7, 0x34, 0x3c, 0x3e, 0x59,
    0x86, 0x3d, 0xde, 0x5a, 0x69, 0x3d, 0xa4, 0x43, 0xa8, 0xbd,
    0x11, 0xdc, 0x85, 0xbd, 0x40, 0x08, 0x97, 0x3d, 0x19, 0xad,
    0xd7, 0x3c, 0x0f, 0x22, 0xd2, 0xbd, 0x5c, 0xb3, 0x55, 0x3d,
    0x16, 0x09, 0x16, 0x3c, 0x23, 0x43, 0x70, 0x3d, 0x9c, 0x59,
    0xb1, 0x3a, 0x9a, 0x85, 0x7a, 0x3d, 0xd2, 0x39, 0xfd, 0xbd,
    0x84, 0x14, 0x35, 0x3c, 0xe5, 0xbd, 0x63, 0x3c, 0xb3, 0x10,
    0x77, 0x3d, 0x7a, 0x02, 0xfa, 0x3d, 0x97, 0x92, 0xf8, 0x3c,
    0xfc, 0x11, 0xb2, 0xbd, 0xf3, 0xb8, 0x5e, 0x3d, 0xa2, 0xaf,
    0x2b, 0xbd, 0xff, 0x3b, 0x93, 0xbd, 0xeb, 0xfb, 0xbc, 0x3d,
    0xd5, 0x98, 0x52, 0xbd, 0x35, 0xb9, 0xb7, 0x3d, 0x09, 0xf5,
    0x3c, 0xbc, 0x49, 0x97, 0x36, 0xbd, 0x45, 0xbc, 0xb9, 0x3d,
    0xa6, 0x6c, 0x29, 0x3d, 0x57, 0x74, 0x05, 0xbd, 0xd6, 0xbe,
    0x98, 0xbc, 0xc3, 0x96, 0xff, 0x3c, 0x36, 0x20, 0x1a, 0xbd,
    0x8c, 0x3b, 0x83, 0xbd, 0x11, 0xca, 0x5b, 0xbd, 0xbc, 0x03,
    0xcc, 0x3c, 0x63, 0xa7, 0x9d, 0xbb, 0x50, 0xa1, 0x5a, 0x3c,
    0x82, 0xd5, 0x6d, 0x3d, 0xcd, 0x69, 0x0e, 0x3c, 0x10, 0xaf,
    0x78, 0x3a, 0xf7, 0xda, 0x3c, 0x3d, 0xed, 0x86, 0x9c, 0x3d,
    0x71, 0xce, 0x8b, 0x3d, 0xba, 0x7e, 0x3e, 0x3d, 0x20, 0x9a,
    0x2a, 0xbd, 0x38, 0x9c, 0x49, 0xbb, 0xaf, 0xce, 0x9a, 0xbd,
    0xd8, 0x3d, 0x0f, 0xbd, 0x87, 0xcb, 0xdc, 0xbc, 0x05, 0xc4,
    0xfb, 0x3b, 0x97, 0xe3, 0x35, 0xbd, 0xdb, 0xd4, 0x0d, 0x3d,
    0x6e, 0x07, 0xd0, 0x3d, 0x05, 0xde, 0xac, 0xbd, 0xcb, 0x7c,
    0x3a, 0x3b, 0x19, 0xd2, 0x61, 0x3d, 0x69, 0xc3, 0xb4, 0x3d,
    0x78, 0x55, 0x38, 0x3c, 0x0a, 0x4e, 0x3e, 0xbc, 0xa9, 0x93,
    0x12, 0xbc, 0x06, 0x9f, 0x2c, 0xbd, 0x7d, 0xa7, 0x98, 0xba,
    0x8e, 0x1e, 0x98, 0xbc, 0x94, 0x1e, 0x10, 0xbc, 0x24, 0x6f,
    0x05, 0x39, 0x71, 0x49, 0x0a, 0xbc, 0x27, 0xa3, 0x19, 0xbc,
    0xb8, 0x6b, 0xbd, 0x3c, 0x59, 0x1e, 0x41, 0x3d, 0x43, 0x39,
    0x93, 0x3c, 0x21, 0xdc, 0x12, 0x3e, 0x88, 0x25, 0x28, 0x3d,
    0x39, 0x69, 0x1a, 0xbd, 0x2a, 0xbb, 0x57, 0xbb, 0x3f, 0xf4,
    0xcd, 0xbc, 0xd3, 0x47, 0x1a, 0x3c, 0xcf, 0xbd, 0x09, 0x3d,
    0xeb, 0xc7, 0x40, 0x3d, 0x70, 0x3d, 0x12, 0x3d, 0x50, 0x85,
    0x41, 0x3d, 0xc1, 0x14, 0xe5, 0xbd, 0xc9, 0xdd, 0x3b, 0x3d,
    0x2e, 0xcc, 0xa1, 0xbb, 0x59, 0x91, 0x39, 0xbd, 0xd0, 0xf2,
    0x72, 0xbd, 0x86, 0x00, 0xf7, 0xbc, 0x38, 0x41, 0x65, 0xbd,
    0x0d, 0x97, 0xa4, 0xbc, 0x75, 0xde, 0x80, 0xbd, 0x8d, 0xb7,
    0x31, 0x3c, 0x17, 0x4e, 0x34, 0xbd, 0x3c, 0xff, 0xe5, 0xbc,
    0xd2, 0x9e, 0x1e, 0x3d, 0x13, 0x52, 0xc8, 0x3d, 0xa6, 0x37,
    0xac, 0x3d, 0xee, 0x76, 0x0b, 0x3e, 0xe4, 0x9c, 0xec, 0xbd,
    0xdf, 0x1f, 0x96, 0x3b, 0x30, 0xca, 0x36, 0x3d, 0xa4, 0x1c,
    0x8a, 0x3d, 0x45, 0x25, 0x7b, 0x3c, 0x6a, 0xc4, 0xbb, 0x3d,
    0x29, 0xca, 0xa8, 0xbd, 0x56, 0xc7, 0x77, 0xbc, 0x75, 0x34,
    0xe6, 0xbc, 0x2e, 0xdb, 0x38, 0xbd, 0x7b, 0xf8, 0x99, 0xbd,
    0xbc, 0xd3, 0x80, 0xbd, 0xf3, 0x45, 0x79, 0xbd, 0x35, 0x24,
    0x03, 0x3d, 0x13, 0x65, 0x93, 0xbc, 0x40, 0xfb, 0x7f, 0x3c,
    0x45, 0xc3, 0x36, 0xbe, 0x67, 0xa2, 0x04, 0xbd, 0x71, 0x18,
    0x04, 0x3d, 0xee, 0x26, 0x19, 0x3d, 0x20, 0x92, 0xf5, 0x3d,
    0x29, 0xbf, 0x8d, 0x3d, 0xf1, 0x9f, 0x17, 0x3d, 0x1c, 0x1a,
    0x19, 0x3e, 0xea, 0xcc, 0x6b, 0xbd, 0x28, 0x9d, 0xf2, 0x3c,
    0xc3, 0x10, 0x79, 0x3c, 0x43, 0x37, 0xb4, 0x3d, 0x93, 0xbf,
    0x05, 0xbd, 0x91, 0x26, 0x54, 0xbc, 0x11, 0x4e, 0x87, 0xbd,
    0xfc, 0x43, 0xe8, 0x3d, 0x9c, 0x7d, 0x10, 0xbe, 0x6d, 0x7f,
    0x85, 0xbc, 0x77, 0x8a, 0xb0, 0xba, 0x5b, 0xf4, 0x15, 0x3c,
    0xad, 0x00, 0x12, 0x3d, 0x9f, 0x30, 0x88, 0x3d, 0x63, 0xf2,
    0xa3, 0xbd, 0x8b, 0x1f, 0xb6, 0xbd, 0xe6, 0x00, 0x9c, 0xbd,
    0x70, 0xf8, 0xbf, 0xbc, 0x80, 0x9b, 0x8b, 0xbd, 0x1f, 0xfb,
    0x70, 0xbd, 0x98, 0xe6, 0x8f, 0x3c, 0x21, 0x4c, 0x14, 0x3d,
    0xaa, 0xc2, 0xcc, 0x3c, 0x1f, 0x0c, 0x1f, 0x3c, 0x1b, 0x02,
    0x80, 0x3d, 0x92, 0x5d, 0x96, 0x3b, 0xe2, 0x7b, 0xe2, 0x3c,
    0x95, 0xd2, 0x6a, 0x3d, 0xbc, 0x41, 0xc4, 0xbc, 0x35, 0xb7,
    0x43, 0xbd, 0x84, 0x01, 0x5f, 0x3d, 0xcb, 0xe4, 0xf3, 0x3c,
    0x0d, 0xb0, 0x60, 0xbd, 0x8c, 0xe1, 0xc8, 0x3c, 0x6f, 0xee,
    0x07, 0xbd, 0xcd, 0x2c, 0x9f, 0xbc, 0x43, 0xce, 0x11, 0xbd,
    0xeb, 0x32, 0xe5, 0xbc, 0xf1, 0x3c, 0x18, 0x3d, 0x3c, 0x68,
    0x03, 0xbd, 0xe7, 0x30, 0x27, 0x3d, 0x30, 0x66, 0xe8, 0x3d,
    0xfc, 0xa3, 0xfe, 0xbd, 0x6c, 0x36, 0xf8, 0x3c, 0x42, 0xc3,
    0xa6, 0x3d, 0x63, 0x87, 0x99, 0xbc, 0x66, 0x60, 0x40, 0xbd,
    0x06, 0x55, 0x91, 0x3d, 0xd4, 0x50, 0x48, 0x3d, 0x0a, 0x8b,
    0xd6, 0x3c, 0x65, 0xf7, 0x8b, 0x3d, 0x2f, 0x3b, 0x31, 0x3c,
    0xd7, 0x25, 0x8d, 0xbd, 0xfc, 0x38, 0x4b, 0x3d, 0xc7, 0x91,
    0x65, 0xbc, 0x79, 0xea, 0xda, 0x3d, 0xb8, 0xcb, 0x97, 0xbb,
    0xea, 0x02, 0xc0, 0x3c, 0xcf, 0x79, 0x48, 0xbd, 0x41, 0x1e,
    0xce, 0x3b, 0x7a, 0x74, 0x6a, 0x3d, 0x1b, 0xf1, 0x34, 0x3d,
    0x97, 0x13, 0xb7, 0xbc, 0x74, 0x1c, 0xcc, 0xbd, 0x4c, 0x54,
    0xed, 0x3d, 0xa4, 0x8b, 0x9e, 0xba, 0x7e, 0x14, 0xd5, 0x3d,
    0xdb, 0x3f, 0xba, 0x3c, 0x21, 0xe6, 0xb7, 0x3c, 0x2b, 0xbc,
    0x76, 0x3d, 0xfd, 0xaa, 0xca, 0x3c, 0x33, 0x48, 0xc1, 0x3b,
    0xfb, 0x00, 0x68, 0x3d, 0xc2, 0xce, 0xc9, 0x3d, 0xda, 0xfd,
    0x5a, 0x3d, 0xeb, 0xaa, 0x71, 0x3a, 0x4b, 0x31, 0x37, 0xbd,
    0xad, 0xa1, 0xd6, 0xbc, 0xb0, 0x26, 0x5f, 0xbd, 0x8a, 0x75,
    0x04, 0x3e, 0xbd, 0x76, 0x03, 0x3c, 0x46, 0x7e, 0x9c, 0xbd,
    0xb1, 0xf9, 0x4c, 0xbd, 0xc8, 0x72, 0xb5, 0xbb, 0x7b, 0x87,
    0xd8, 0xbc, 0x23, 0x6c, 0x86, 0xbd, 0x28, 0x6f, 0xd0, 0xbc,
    0x49, 0x94, 0x29, 0x3d, 0xa4, 0x22, 0x22, 0x3d, 0xcb, 0xa8,
    0xac, 0xbd, 0xf4, 0x53, 0xc4, 0x3c, 0x90, 0x67, 0x13, 0xbd,
    0x1a, 0xdf, 0x93, 0x3c, 0x3a, 0x1f, 0xc7, 0x3d, 0xea, 0xb5,
    0x73, 0xbd, 0xa0, 0xae, 0x32, 0xbd, 0x81, 0xaf, 0xd5, 0x3d,
    0xe8, 0x3a, 0x74, 0xbd, 0x18, 0x55, 0x34, 0x3d, 0x53, 0xb8,
    0x70, 0xbd, 0xe4, 0xa8, 0xd0, 0xbb, 0xa4, 0xda, 0x0c, 0xbb,
    0x31, 0x44, 0x05, 0x3d, 0x30, 0x52, 0xc3, 0xbd, 0xaf, 0x5b,
    0x80, 0xbd, 0x3b, 0x3c, 0xbf, 0x3d, 0x3a, 0x96, 0x1b, 0xbd,
    0xbd, 0x3f, 0xe3, 0x3a, 0xd2, 0x2a, 0x27, 0x3d, 0xd2, 0x2e,
    0x8c, 0x3d, 0x62, 0xfa, 0x5a, 0xbb, 0xe2, 0x0e, 0x9f, 0xbd,
    0xf8, 0xf5, 0xa8, 0x3d, 0xa8, 0x8f, 0xcc, 0x3d, 0x3f, 0x9a,
    0x8a, 0x3d, 0x83, 0xae, 0xa9, 0x3c, 0x84, 0x33, 0xbe, 0x3d,
    0x55, 0xf0, 0x53, 0x3d, 0x54, 0x60, 0x75, 0x3d, 0xe5, 0x84,
    0x82, 0xbd, 0xe5, 0xc3, 0x10, 0x3e, 0x64, 0x78, 0xb3, 0x3c,
    0x85, 0x3d, 0x0c, 0x3d, 0x84, 0xeb, 0xf6, 0xbb, 0x54, 0xcc,
    0x5e, 0xbb, 0x5c, 0xcf, 0x2b, 0x3d, 0xcd, 0xb7, 0x17, 0x3c,
    0x59, 0x1b, 0x5c, 0xba, 0x13, 0x2e, 0xc1, 0x3d, 0x38, 0xb1,
    0x20, 0xbd, 0x1f, 0x01, 0x3e, 0xbb, 0x41, 0x79, 0x92, 0x3d,
    0x1f, 0xf2, 0x2c, 0x3d, 0x40, 0x4a, 0xa5, 0xbc, 0x3c, 0x4a,
    0x5a, 0x3c, 0xc8, 0x2e, 0xf2, 0x3d, 0x67, 0x3a, 0x6f, 0xbc,
    0x03, 0xaa, 0x45, 0xbd, 0xe4, 0x93, 0xf3, 0xbc, 0x0f, 0x3d,
    0xb0, 0x3b, 0xba, 0x1c, 0xc6, 0x3d, 0x1b, 0xaa, 0x7b, 0xbd,
    0x90, 0xbc, 0xae, 0x3c, 0xe1, 0xc7, 0x46, 0xbb, 0x2b, 0x1c,
    0xd8, 0x3d, 0x38, 0xa2, 0xfe, 0x3b, 0x7a, 0x47, 0x8f, 0xbc,
    0x28, 0xe8, 0x93, 0x3d, 0xdc, 0x6d, 0x4d, 0xbd, 0x75, 0x67,
    0x2d, 0x3d, 0xd6, 0xef, 0x43, 0x3d, 0x9a, 0x4a, 0x2c, 0x3d,
    0xcc, 0x37, 0x12, 0x3d, 0x14, 0xaa, 0x0a, 0xbd, 0xc0, 0x6a,
    0x40, 0x3d, 0xc4, 0x40, 0x02, 0x3e, 0xda, 0x1a, 0x21, 0xbc,
    0xc5, 0x85, 0x35, 0xbb, 0xdc, 0x9e, 0x45, 0x3d, 0x34, 0xda,
    0x45, 0x3d, 0x32, 0xd5, 0x71, 0xbc, 0xbb, 0xf3, 0x17, 0x3d,
    0xbe, 0x29, 0x98, 0x3c, 0xff, 0x9b, 0x33, 0x3d, 0xe7, 0xd7,
    0x03, 0xbd, 0xab, 0x12, 0xef, 0x3c, 0xc8, 0x16, 0x20, 0x3c,
    0x05, 0x73, 0x0a, 0xbc, 0xee, 0x58, 0x53, 0x3d, 0x1b, 0x8e,
    0x55, 0x3d, 0x74, 0x42, 0xb3, 0x3d, 0xc7, 0x45, 0x91, 0xbd,
    0x71, 0x3e, 0x71, 0x3d, 0xeb, 0xcf, 0x53, 0xbc, 0x83, 0x3e,
    0x5f, 0xbd, 0x97, 0x8c, 0x30, 0x3d, 0xa0, 0xe7, 0xef, 0x3d,
    0xf5, 0x2b, 0x81, 0x3d, 0x98, 0x62, 0x81, 0x3d, 0x94, 0x12,
    0x98, 0x3d, 0x8a, 0x1b, 0x22, 0x3d, 0x9a, 0x2e, 0x29, 0xbd,
    0xdd, 0x06, 0xbd, 0xbc, 0xff, 0xf7, 0x1a, 0xbc, 0xfa, 0x5c,
    0xc6, 0x3d, 0xc6, 0x52, 0xcc, 0x3b, 0x20, 0x32, 0x50, 0xbd,
    0x81, 0x96, 0x72, 0x3d, 0x39, 0x06, 0x25, 0xbd, 0x0c, 0xf6,
    0xd7, 0x3c, 0xb1, 0x92, 0x17, 0x3d, 0x04, 0x8e, 0xbb, 0xbd,
    0x35, 0xba, 0x39, 0x3c, 0xca, 0x70, 0xe1, 0xbc, 0xd5, 0x58,
    0x86, 0x3c, 0xfe, 0x9d, 0xa7, 0x3d, 0x52, 0x09, 0x6f, 0x3d,
    0xb1, 0x66, 0x2f, 0xbc, 0x0b, 0x75, 0x97, 0x3d, 0xb0, 0x6a,
    0x1e, 0x3d, 0x2b, 0x2a, 0x18, 0x3d, 0x19, 0x4f, 0xaf, 0x3b,
    0xe6, 0x6e, 0x2b, 0x3d, 0xaa, 0xf3, 0xd4, 0xbc, 0x2c, 0xd6,
    0x94, 0xbc, 0x05, 0x83, 0x1a, 0xbd, 0xbb, 0x5b, 0x84, 0xbc,
    0xde, 0xc9, 0xa0, 0x3c, 0x09, 0x60, 0xb2, 0x3d, 0x49, 0x21,
    0x8d, 0x3d, 0x05, 0x36, 0x87, 0xbc, 0x71, 0xd3, 0xaf, 0xbd,
    0xd5, 0xe3, 0xc2, 0x3d, 0x91, 0x32, 0xed, 0x3d, 0x4c, 0x5f,
    0x8b, 0x3c, 0xc0, 0xa6, 0x61, 0xbd, 0xcb, 0xed, 0xc3, 0x3d,
    0x0f, 0x43, 0x62, 0xbc, 0x08, 0x96, 0x4e, 0xbb, 0xab, 0xb6,
    0x32, 0x3b, 0x51, 0x85, 0x86, 0x3d, 0xcf, 0xe1, 0xea, 0x3c,
    0x89, 0xf8, 0xef, 0x3c, 0xc7, 0x17, 0x3e, 0xbd, 0x8e, 0x37,
    0x10, 0xbd, 0xf3, 0x59, 0xaf, 0x3a, 0xe0, 0xb4, 0x0c, 0x3c,
    0xad, 0xbe, 0x48, 0xbc, 0x37, 0x5e, 0xa1, 0xbd, 0xbf, 0x40,
    0x20, 0x3d, 0x01, 0xa6, 0xd7, 0x3a, 0xcb, 0x58, 0x17, 0x3b,
    0xef, 0x5d, 0x6f, 0xbc, 0xb9, 0x0c, 0xef, 0x3d, 0x34, 0x87,
    0xa2, 0x3d, 0x3e, 0xbb, 0x34, 0x3b, 0x37, 0xcf, 0x21, 0x3c,
    0x75, 0xc6, 0x0d, 0xbc, 0x0b, 0x97, 0x04, 0x3d, 0xf5, 0xb4,
    0xf3, 0xbc, 0x84, 0x8d, 0xbb, 0x3c, 0x92, 0xb6, 0xb2, 0x3c,
    0x01, 0xbd, 0x3d, 0x3b, 0xf2, 0xd4, 0x44, 0x3d, 0x53, 0x33,
    0x69, 0x3b, 0x8f, 0xfb, 0xad, 0x3d, 0x0f, 0x0a, 0xdb, 0x3b,
    0x7e, 0x86, 0x0f, 0xbb, 0x1b, 0xf3, 0x5d, 0x3e, 0x85, 0x16,
    0xb6, 0x3d, 0xb6, 0x45, 0x94, 0x3d, 0x8a, 0xc4, 0x0a, 0x3d,
    0x30, 0xa7, 0x39, 0x3c, 0x01, 0xe1, 0x03, 0x3d, 0x70, 0xad,
    0xdb, 0x3d, 0x6d, 0xd3, 0x14, 0x3d, 0x59, 0xd9, 0x08, 0x3d,
    0xd8, 0x41, 0xa6, 0x3d, 0x83, 0x7b, 0x51, 0x3d, 0x39, 0x19,
    0x2c, 0xbd, 0x10, 0x96, 0x5b, 0x3d, 0x86, 0x47, 0x73, 0x3d,
    0xa9, 0x92, 0x1a, 0xbb, 0xbc, 0xea, 0xe3, 0xbc, 0xcc, 0x75,
    0x63, 0x3d, 0xfb, 0x8e, 0x06, 0x3d, 0x97, 0xe6, 0x23, 0xbc,
    0x05, 0x04, 0x77, 0x3b, 0x51, 0x2f, 0xee, 0x3d, 0x11, 0xbd,
    0x9b, 0xbc, 0x62, 0xec, 0x10, 0x3c, 0xae, 0xd7, 0x31, 0xbc,
    0xbb, 0xbc, 0x84, 0x3d, 0xe0, 0xd7, 0xb1, 0x3d, 0xfc, 0xdf,
    0xc0, 0xbc, 0x5e, 0xe8, 0x77, 0xbd, 0x1e, 0x8b, 0x9d, 0xbb,
    0x24, 0xe6, 0x3f, 0x3d, 0xc3, 0xf7, 0x1c, 0x3d, 0xc6, 0x90,
    0x33, 0x3d, 0xd1, 0x5c, 0x63, 0x3c, 0x44, 0xa2, 0xa8, 0x3d,
    0x4d, 0xfa, 0xe1, 0xbd, 0x32, 0x02, 0x82, 0x3c, 0x19, 0xe2,
    0x1f, 0x3e, 0xea, 0x05, 0xaf, 0xbc, 0x0a, 0x84, 0x40, 0x3d,
    0xc1, 0xa4, 0x83, 0xbd, 0x94, 0xeb, 0x36, 0x3d, 0x19, 0x4b,
    0x81, 0x3d, 0xb5, 0x31, 0x91, 0x3c, 0x86, 0x8c, 0x11, 0x3d,
    0xea, 0x2b, 0x8e, 0xbd, 0xba, 0xd1, 0xda, 0x3c, 0xea, 0xce,
    0x3e, 0xbc, 0xee, 0xa3, 0xe8, 0x3d, 0xa1, 0xb0, 0x04, 0xbd,
    0xf2, 0x63, 0xfd, 0x3c, 0xc5, 0x03, 0x08, 0x3c, 0x5e, 0x6e,
    0x82, 0xbd, 0x47, 0xc0, 0x95, 0xbc, 0x30, 0x36, 0x74, 0x3d,
    0xb8, 0x1e, 0x5b, 0x3d, 0x34, 0x4a, 0x5e, 0xbd, 0x80, 0x1b,
    0xaa, 0x3c, 0x3b, 0x6a, 0x2d, 0xbd, 0x15, 0x56, 0x5a, 0xbd,
    0xfe, 0xfd, 0x38, 0x3e, 0x95, 0xd5, 0xe5, 0x3d, 0xf3, 0xa4,
    0x5a, 0x3d, 0x7f, 0x9a, 0x8b, 0x3d, 0xc4, 0xc4, 0x3a, 0xbc,
    0xd5, 0xfa, 0x84, 0xbd, 0x1b, 0x0c, 0x85, 0x3d, 0x9c, 0xc9,
    0xd7, 0x3d, 0x15, 0x2f, 0xe4, 0x3c, 0x1a, 0x4d, 0xbd, 0x3c,
    0x85, 0xd8, 0x0e, 0xbc, 0x7f, 0x16, 0x94, 0xba, 0xc6, 0x6d,
    0xb0, 0x3d, 0xc8, 0xaa, 0x50, 0xbe, 0x89, 0xe9, 0x0f, 0x3e,
    0x7e, 0x13, 0x24, 0xbd, 0xe0, 0x24, 0xb5, 0xbd, 0x81, 0x03,
    0x8b, 0xbd, 0x86, 0x81, 0x85, 0x3d, 0x98, 0x1d, 0x6c, 0x3c,
    0x4b, 0x51, 0x04, 0x3d, 0x69, 0x1e, 0xe0, 0xbd, 0x91, 0x46,
    0xe7, 0x3d, 0x30, 0x21, 0x89, 0xbd, 0x0a, 0x5e, 0xe1, 0x3d,
    0x78, 0xe8, 0x00, 0x3d, 0x1d, 0xcf, 0x43, 0x3d, 0xbe, 0xbb,
    0xce, 0x3c, 0xa0, 0x09, 0xbd, 0x3c, 0x76, 0x3f, 0x2a, 0xbe,
    0x63, 0xdb, 0x1a, 0x3e, 0x6d, 0x89, 0x13, 0xbd, 0x56, 0xb2,
    0x15, 0x3e, 0xa2, 0x43, 0x15, 0x3b, 0x03, 0x7f, 0x93, 0x3d,
    0x24, 0x3c, 0x5c, 0x3c, 0x37, 0x1d, 0xec, 0xbb, 0x8b, 0xc9,
    0xc2, 0xbd, 0x5d, 0x67, 0x45, 0xbc, 0x94, 0xf0, 0x94, 0x38,
    0x4d, 0x3b, 0x51, 0xbd, 0x3b, 0x4b, 0x16, 0xbc, 0xef, 0xda,
    0xb6, 0x3d, 0xcd, 0x4c, 0x58, 0xbd, 0x95, 0xca, 0x78, 0x3d,
    0x6f, 0x2b, 0x4e, 0xbd, 0xa2, 0xc6, 0x84, 0xbc, 0x1d, 0xc0,
    0x71, 0xbd, 0x90, 0x63, 0x47, 0xbd, 0xa4, 0x55, 0x15, 0xbc,
    0x0d, 0xdc, 0x4e, 0x3d, 0xf9, 0x0b, 0x48, 0x3c, 0x00, 0xf1,
    0xa0, 0x3d, 0x5c, 0xe0, 0x0a, 0xbe, 0x2d, 0x12, 0x74, 0xb9,
    0x91, 0xdb, 0x8e, 0x3d, 0xa4, 0x8c, 0x6f, 0x3d, 0x5d, 0xbc,
    0x85, 0xbc, 0xf4, 0xeb, 0x67, 0xbd, 0xb5, 0x04, 0xad, 0x3c,
    0xdc, 0xe5, 0x3f, 0x3d, 0x61, 0xd6, 0x0e, 0xbe, 0xff, 0xa1,
    0xe8, 0x3d, 0xe5, 0xca, 0xa1, 0xbd, 0xae, 0xae, 0x5b, 0xbd,
    0x3e, 0xb5, 0x9d, 0x3c, 0xd1, 0x76, 0xe3, 0xbc, 0xaf, 0xaf,
    0xcd, 0xbc, 0xd2, 0x45, 0x3b, 0xbd, 0x63, 0x4b, 0xb6, 0xbc,
    0x78, 0x07, 0x1d, 0x3d, 0xe4, 0x0d, 0x1e, 0x3a, 0x02, 0x17,
    0x12, 0x3d, 0x58, 0x5f, 0x0e, 0x3d, 0x22, 0x5c, 0x08, 0x3d,
    0xd1, 0x74, 0xfa, 0xbb, 0x28, 0xfe, 0xcd, 0x3d, 0xab, 0x03,
    0xaf, 0x3d, 0x87, 0x51, 0xf7, 0x3b, 0x99, 0xa2, 0xca, 0xbc,
    0xfc, 0x8f, 0x8f, 0xbc, 0x97, 0x39, 0x9a, 0x3c, 0x10, 0x52,
    0x9d, 0x3c, 0x16, 0xf6, 0xd2, 0xbd, 0x6a, 0x99, 0x66, 0xbd,
    0xb3, 0x0b, 0x3d, 0x3b, 0xfe, 0x50, 0xc7, 0x3d, 0x44, 0xec,
    0x74, 0xbc, 0xc6, 0x14, 0x93, 0x3d, 0x54, 0xbb, 0x34, 0xbd,
    0xb9, 0xc9, 0xe4, 0x3b, 0x56, 0x9e, 0xd1, 0x3d, 0x3b, 0xe8,
    0x05, 0x3c, 0xe9, 0xab, 0x08, 0x3b, 0xb6, 0x37, 0xcd, 0x3d,
    0x76, 0x5c, 0xe7, 0x3c, 0xbb, 0x7f, 0x89, 0xbd, 0xd5, 0x43,
    0x71, 0x3d, 0x53, 0x60, 0x25, 0xbc, 0x43, 0x6c, 0x7f, 0x3b,
    0xe5, 0x22, 0xa7, 0xbc, 0x96, 0xa3, 0xb5, 0xbb, 0xd2, 0x25,
    0xbb, 0x3c, 0x19, 0x97, 0xb5, 0xbc, 0x26, 0x7a, 0xc6, 0x3b,
    0x7b, 0x23, 0xaa, 0x3d, 0x8e, 0x9f, 0xed, 0x3d, 0x59, 0x35,
    0xa3, 0xbc, 0x03, 0x36, 0xaa, 0x3d, 0x8b, 0x79, 0x9e, 0x3d,
    0xca, 0xbd, 0x8e, 0x3d, 0x99, 0x7d, 0x6b, 0x3c, 0x0f, 0x1c,
    0xb8, 0x3d, 0x75, 0xbb, 0xa3, 0xbc, 0x4a, 0x8b, 0x4e, 0x3d,
    0x79, 0x02, 0x37, 0x3d, 0x1e, 0xf5, 0x73, 0x3d, 0xc0, 0x0a,
    0x5f, 0x3d, 0x03, 0x47, 0x3b, 0x3b, 0x1e, 0xaa, 0xbd, 0xbb,
    0x63, 0x03, 0x38, 0xbc, 0x76, 0x08, 0x30, 0xbc, 0xe2, 0x11,
    0x65, 0xbb, 0x57, 0x10, 0x06, 0x3d, 0x2c, 0x8f, 0x84, 0xbd,
    0x9f, 0x83, 0x18, 0xbd, 0x9f, 0xad, 0x37, 0x3d, 0x38, 0x8d,
    0x40, 0x3d, 0x91, 0x94, 0x58, 0xbd, 0x3b, 0x02, 0x49, 0x3d,
    0xc6, 0x24, 0x9c, 0x3d, 0x9d, 0x74, 0x18, 0x3d, 0xb1, 0x24,
    0x75, 0xbb, 0x5b, 0xc1, 0x03, 0x3d, 0xb1, 0xa6, 0x7e, 0x3d,
    0x7b, 0xfa, 0x80, 0x3d, 0xf0, 0x25, 0x9d, 0x3d, 0xaf, 0xb9,
    0x95, 0x3c, 0xdb, 0xfe, 0x63, 0xba, 0xad, 0xca, 0x49, 0x3d,
    0xc7, 0x8e, 0x91, 0xbc, 0xe3, 0x20, 0x86, 0x3c, 0x18, 0xbe,
    0xa0, 0x3d, 0xe9, 0x41, 0xd2, 0xbd, 0x10, 0x84, 0x08, 0x3d,
    0x76, 0x68, 0xbb, 0xbd, 0xec, 0xb9, 0xbd, 0x3b, 0xce, 0x4a,
    0x48, 0x3c, 0x38, 0xb2, 0x25, 0xbc, 0x55, 0x2d, 0xc2, 0x3d,
    0xe4, 0xc1, 0xc5, 0x3d, 0xe1, 0xa0, 0x02, 0x3d, 0xd9, 0x96,
    0x19, 0xbd, 0xf1, 0xc1, 0x9c, 0xbc, 0xc6, 0x0e, 0xeb, 0x3a,
    0xee, 0x00, 0xac, 0xbc, 0x0e, 0x86, 0xe4, 0x3c, 0x98, 0xe5,
    0x0f, 0x3d, 0x67, 0x7e, 0x96, 0xbd, 0x7e, 0x30, 0xc1, 0x3d,
    0xd1, 0xc8, 0x22, 0xbd, 0x37, 0xeb, 0x3f, 0xba, 0x94, 0xd0,
    0x00, 0x3d, 0x07, 0x0a, 0xd1, 0xbc, 0xe4, 0xaf, 0x6c, 0xbd,
    0xac, 0x41, 0x91, 0x3d, 0x71, 0x5c, 0xc6, 0x3d, 0x68, 0xcb,
    0xec, 0xbc, 0x99, 0xe3, 0xba, 0x3c, 0xc1, 0x60, 0x6b, 0xbd,
    0xbb, 0x30, 0x30, 0x3d, 0xf9, 0xff, 0x63, 0x3c, 0x9d, 0x6f,
    0x28, 0xbd, 0x66, 0x33, 0x8c, 0x3c, 0x2e, 0x68, 0x17, 0xbd,
    0x31, 0x34, 0xf5, 0x3c, 0xb1, 0x50, 0x94, 0x3d, 0x75, 0x6f,
    0x2d, 0x3d, 0xc8, 0x01, 0x0e, 0x3d, 0x47, 0x1c, 0x8c, 0x3d,
    0x95, 0xfc, 0x4d, 0x3d, 0x75, 0xb6, 0x06, 0x3c, 0x89, 0xeb,
    0xcf, 0x3b, 0xae, 0x80, 0x47, 0xbb, 0x3d, 0xc7, 0x96, 0xbd,
    0x78, 0x38, 0x13, 0x3d, 0x86, 0x18, 0x02, 0x3d, 0x38, 0x14,
    0x85, 0xbb, 0xde, 0x0f, 0x4f, 0x3d, 0xd5, 0x60, 0x3c, 0x3d,
    0xc9, 0x2a, 0xe7, 0xbc, 0x25, 0x81, 0x17, 0x3d, 0x1b, 0x52,
    0x25, 0x3c, 0x19, 0x47, 0x21, 0xbc, 0xef, 0x6e, 0x2a, 0x3d,
    0x31, 0x47, 0x08, 0x3c, 0xfe, 0xf3, 0x7f, 0x3c, 0xef, 0x97,
    0xa1, 0xbd, 0xba, 0xe1, 0x68, 0xbd, 0xcf, 0x44, 0x6e, 0x3d,
    0xa7, 0xdb, 0x73, 0x3d, 0xa3, 0xfd, 0x86, 0xbd, 0x5b, 0x3d,
    0xba, 0x3c, 0xe2, 0x69, 0x94, 0x3d, 0x1a, 0xd8, 0xcb, 0xbc,
    0x5a, 0x23, 0xa6, 0xbd, 0x4a, 0x4c, 0x79, 0xbb, 0x7e, 0xd0,
    0xd5, 0x3c, 0xd3, 0x91, 0xf7, 0x3c, 0x23, 0x75, 0xed, 0x3c,
    0x70, 0xb3, 0x4a, 0x3d, 0xce, 0x42, 0x17, 0x3c, 0x56, 0xde,
    0xc5, 0x3d, 0xd3, 0xd7, 0x06, 0xbd, 0x32, 0x4d, 0x42, 0x3e,
    0x1b, 0x6e, 0xb4, 0x3d, 0x13, 0xfc, 0xff, 0x3c, 0x31, 0xa6,
    0xe1, 0xba, 0xf4, 0xdf, 0x07, 0xbb, 0x76, 0x5a, 0x25, 0xbb,
    0x5d, 0x82, 0x56, 0xbb, 0x59, 0x7a, 0x93, 0x3c, 0x99, 0x8b,
    0xa2, 0xbb, 0xf3, 0xc8, 0xaa, 0xbb, 0x6e, 0x14, 0x22, 0xbd,
    0xab, 0xf1, 0xc7, 0x3c, 0xfc, 0xe6, 0x4f, 0x3d, 0xe3, 0x0b,
    0x44, 0xbd, 0x34, 0x1f, 0x2d, 0xbc, 0x3c, 0x90, 0x50, 0x3d,
    0xff, 0x41, 0x4c, 0x3d, 0xce, 0x71, 0xbe, 0x3c, 0x0d, 0x61,
    0x65, 0xbc, 0xc4, 0x78, 0x73, 0x3d, 0x08, 0x7a, 0xd3, 0xbc,
    0xf1, 0xfe, 0x25, 0xbc, 0xa9, 0x5f, 0xf3, 0x3c, 0x49, 0x9e,
    0x2e, 0x3d, 0xfa, 0x13, 0x96, 0xbd, 0x26, 0xd1, 0xf9, 0x3c,
    0xf7, 0x81, 0xc5, 0xbc, 0x1e, 0x6e, 0xc1, 0x3d, 0x74, 0xa4,
    0xc4, 0x3c, 0xf8, 0x56, 0x40, 0x3d, 0xdd, 0x2d, 0x1d, 0xbd,
    0xc9, 0xc8, 0x7a, 0xbd, 0x4d, 0xf1, 0x5c, 0xbd, 0x19, 0xb2,
    0x77, 0xbd, 0xd8, 0x7c, 0x05, 0x3d, 0xf9, 0x88, 0xaa, 0x3d,
    0x04, 0xbc, 0x9b, 0xbd, 0xa9, 0x86, 0x15, 0xbc, 0x93, 0x07,
    0xf7, 0x3d, 0x20, 0x06, 0xc7, 0xbb, 0xf8, 0xcd, 0x96, 0xbb,
    0x3c, 0xff, 0x0c, 0x3d, 0xfd, 0x1c, 0x93, 0xbd, 0xd2, 0xc7,
    0x1a, 0xbd, 0x19, 0x1e, 0x55, 0x3d, 0x85, 0xdd, 0x9d, 0xbc,
    0x9e, 0x9b, 0x6c, 0xbd, 0xf4, 0xdf, 0x60, 0xbc, 0x66, 0xcc,
    0xf7, 0xbb, 0x20, 0x7f, 0x05, 0x3d, 0x61, 0x71, 0x2b, 0x3b,
    0x26, 0xf9, 0xbd, 0x3c, 0x06, 0x9a, 0x90, 0xbb, 0xee, 0x45,
    0x47, 0x3d, 0xce, 0x3b, 0xa4, 0x3c, 0xec, 0xfe, 0x98, 0x3c,
    0x0b, 0xf5, 0x47, 0x3d, 0x15, 0xc8, 0x5c, 0x3d, 0xdd, 0xeb,
    0xa2, 0xbd, 0xd0, 0x4a, 0x85, 0x3d, 0xce, 0x61, 0x9f, 0xbb,
    0xd4, 0x73, 0x46, 0x3d, 0x15, 0xea, 0x58, 0xbd, 0xa4, 0x08,
    0xb9, 0x3b, 0x4c, 0x76, 0xd4, 0x3c, 0x22, 0x9d, 0xe6, 0x3b,
    0x41, 0x6d, 0x49, 0x3d, 0xdd, 0x66, 0x92, 0x3d, 0x87, 0xe8,
    0x37, 0x3d, 0xe9, 0x1b, 0xe6, 0x3d, 0x66, 0x14, 0x4d, 0x3c,
    0x89, 0x64, 0x55, 0xb9, 0xc8, 0xb2, 0x31, 0x3d, 0xe6, 0x3c,
    0x10, 0x3d, 0xc6, 0xf9, 0xab, 0x3c, 0x33, 0x3c, 0xf9, 0x3c,
    0xbf, 0x5c, 0x4c, 0x3b, 0xd7, 0xc9, 0xda, 0xbc, 0xba, 0x79,
    0x41, 0x3d, 0x87, 0x5f, 0xfa, 0x3a, 0x82, 0xba, 0x09, 0x3e,
    0x50, 0xd8, 0xe4, 0x3d, 0x6e, 0xc3, 0x8b, 0xbd, 0xa6, 0xb2,
    0x99, 0xbd, 0xae, 0x4e, 0x02, 0xbd, 0xb2, 0x73, 0xdc, 0x3d,
    0xb5, 0x2a, 0x21, 0x3d, 0x41, 0x4c, 0xa3, 0xbd, 0x3b, 0xd7,
    0x5f, 0xbc, 0xa0, 0x58, 0x9c, 0x3b, 0x43, 0x71, 0xa5, 0xbd,
    0x80, 0xd5, 0x24, 0x3d, 0xc8, 0xe4, 0xb7, 0x3c, 0x00, 0x4d,
    0x9d, 0xbc, 0x37, 0xed, 0x5b, 0xbc, 0x05, 0x1b, 0x7e, 0xbd,
    0x96, 0x76, 0xb9, 0x3a, 0x03, 0x4e, 0xd4, 0x3c, 0xef, 0xab,
    0x2c, 0xbd, 0xed, 0x54, 0x45, 0x3d, 0x45, 0x03, 0x4d, 0x3d,
    0x8f, 0x67, 0xac, 0x3d, 0x1d, 0xf8, 0xe8, 0xbc, 0x73, 0xb7,
    0x0d, 0xbd, 0x43, 0xe4, 0x12, 0xbd, 0x2e, 0x7a, 0x9f, 0x3d,
    0xd8, 0xe2, 0x3a, 0xbd, 0x8e, 0xf5, 0xe7, 0xbc, 0xf9, 0x99,
    0x8d, 0x3d, 0x6c, 0x43, 0x8a, 0x3c, 0x36, 0xb6, 0xad, 0x3d,
    0xdb, 0xe9, 0xb4, 0xbd, 0xb0, 0x61, 0x8e, 0xbd, 0x2a, 0x4e,
    0x8c, 0x3a, 0x1f, 0x3c, 0xa3, 0x3c, 0x00, 0x23, 0x81, 0x3d,
    0x14, 0xa3, 0x10, 0xbd, 0xe6, 0x59, 0x20, 0x3a, 0x42, 0xc1,
    0x86, 0x3d, 0x5c, 0xbe, 0x3d, 0x3d, 0xb5, 0xdc, 0xe0, 0x3c,
    0x73, 0x97, 0xc6, 0x3c, 0x1a, 0x04, 0x8f, 0xbb, 0xa8, 0xf6,
    0x64, 0xbb, 0x06, 0xd1, 0x06, 0xbd, 0x96, 0xbf, 0x3e, 0x3e,
    0x62, 0x22, 0x01, 0x3d, 0xf2, 0xf6, 0xf7, 0x3c, 0x7a, 0x0a,
    0x9b, 0x3c, 0xf5, 0x5a, 0x93, 0xbd, 0x87, 0x2e, 0x4a, 0xbd,
    0x82, 0x9d, 0x38, 0xbd, 0x5c, 0x49, 0x85, 0x3c, 0x1b, 0x37,
    0x9b, 0x3a, 0xf3, 0x3f, 0x4a, 0x3c, 0x00, 0xf9, 0xef, 0xbd,
    0xe3, 0xf9, 0x01, 0x3d, 0x05, 0x9a, 0x87, 0xbd, 0x09, 0xa3,
    0x65, 0xbb, 0x42, 0xe0, 0x71, 0x3d, 0x15, 0x5e, 0x70, 0xbb,
    0x45, 0xcf, 0x5f, 0xbc, 0x38, 0x1a, 0xa0, 0x3c, 0x0a, 0x10,
    0xcb, 0xbc, 0xe0, 0x29, 0x19, 0x3d, 0xfc, 0x97, 0x39, 0x3d,
    0xe4, 0x23, 0x2a, 0x3d, 0x12, 0xf6, 0xa9, 0x3d, 0x65, 0xe1,
    0x0c, 0x3e, 0xe6, 0x9e, 0x3f, 0xbb, 0x9b, 0x93, 0x95, 0xbc,
    0x4c, 0x3d, 0x55, 0x3d, 0x2f, 0xc5, 0x48, 0x3d, 0xad, 0xf8,
    0x67, 0x3d, 0xde, 0x0e, 0x89, 0xbd, 0x27, 0x0b, 0x7d, 0xbd,
    0x82, 0x37, 0x98, 0x3d, 0x46, 0xda, 0x01, 0x3c, 0x83, 0xaa,
    0x86, 0x3d, 0x5d, 0xf9, 0x80, 0xbd, 0x07, 0x19, 0xd5, 0x3d,
    0x15, 0x90, 0x6a, 0x3c, 0x8c, 0xfd, 0x8a, 0xbb, 0x46, 0xe1,
    0xb0, 0x3c, 0xee, 0xe1, 0xaf, 0xbb, 0x3f, 0x32, 0xa2, 0xbb,
    0x53, 0x4e, 0x3c, 0x3d, 0x41, 0x36, 0x1f, 0x3d, 0x17, 0x0b,
    0x99, 0x3b, 0xd8, 0xbe, 0xdf, 0xbc, 0x62, 0x34, 0xae, 0x3d,
    0x12, 0xa3, 0xbf, 0x3d, 0x06, 0xbf, 0x03, 0x3e, 0xe1, 0xa8,
    0x87, 0x3c, 0x30, 0x07, 0x24, 0x3c, 0x5b, 0x0c, 0x8c, 0x3c,
    0x14, 0x34, 0xf5, 0x3d, 0x11, 0x8a, 0x76, 0x3d, 0x57, 0x7a,
    0xf2, 0xbc, 0x45, 0x10, 0x00, 0xbd, 0xb6, 0x25, 0x85, 0xbd,
    0xfd, 0xed, 0x31, 0xbb, 0x52, 0xa2, 0xf3, 0x3c, 0x5e, 0xc0,
    0x17, 0xbd, 0xd8, 0x18, 0x85, 0xbc, 0x14, 0x91, 0x0f, 0x3d,
    0xf0, 0xf8, 0x3f, 0xbb, 0x04, 0x6e, 0x0a, 0xbc, 0xc9, 0x3d,
    0x00, 0xbd, 0xc6, 0x8d, 0xd1, 0xbc, 0x29, 0x78, 0xbd, 0x3c,
    0x0d, 0x99, 0x39, 0xbd, 0x30, 0x02, 0x55, 0x3d, 0xb1, 0xd4,
    0x24, 0xbc, 0x64, 0x0b, 0x7a, 0x3d, 0x2e, 0x9a, 0x88, 0xbc,
    0x42, 0x93, 0x84, 0x3d, 0x7a, 0xd8, 0x99, 0x3c, 0x1e, 0x51,
    0x55, 0x3c, 0x13, 0xbd, 0xd1, 0x3d, 0x0b, 0x5b, 0xb8, 0x3c,
    0x80, 0x3b, 0x91, 0xbb, 0x1d, 0xf6, 0x57, 0x3d, 0xa2, 0x5b,
    0x54, 0x3d, 0xd0, 0x08, 0x81, 0x3d, 0xfd, 0x99, 0x0a, 0x3d,
    0x0d, 0x69, 0x97, 0x3c, 0x0e, 0x4f, 0x6b, 0xbc, 0xbe, 0x9f,
    0x4d, 0xbc, 0x0b, 0x93, 0xec, 0x3c, 0x07, 0x03, 0x0e, 0x3d,
    0x0f, 0x54, 0x13, 0xbe, 0x31, 0x65, 0x74, 0xbd, 0x18, 0x95,
    0x31, 0x3d, 0x2e, 0xd9, 0x71, 0x3d, 0xaa, 0xd8, 0xf7, 0x3a,
    0x28, 0x87, 0xdf, 0x3c, 0xd9, 0xcd, 0xb6, 0x3c, 0x0e, 0x36,
    0xaa, 0xbc, 0x4c, 0xad, 0xbd, 0x3c, 0xf4, 0x4a, 0xf2, 0xba,
    0x0d, 0xcc, 0xf5, 0x3d, 0xf8, 0xf8, 0x23, 0x3d, 0xdd, 0xdc,
    0x91, 0x3b, 0x16, 0x35, 0x0e, 0x3d, 0xb7, 0x35, 0x27, 0x3d,
    0x08, 0x70, 0x59, 0xbe, 0x09, 0x5e, 0x34, 0xbc, 0x80, 0x1f,
    0xa3, 0xbd, 0xcf, 0x11, 0x3b, 0xbd, 0xa1, 0x9f, 0x88, 0xbd,
    0xed, 0x2d, 0xee, 0xbc, 0x97, 0x00, 0x49, 0x3c, 0xb1, 0x27,
    0x8f, 0xbc, 0xd3, 0x78, 0x05, 0xbc, 0xd3, 0x24, 0x7f, 0xbd,
    0xc4, 0x5c, 0x09, 0x3e, 0x6b, 0x0e, 0x40, 0x3b, 0x81, 0x69,
    0xdb, 0xb9, 0x55, 0x06, 0x28, 0xbc, 0xe7, 0x10, 0x2b, 0x3b,
    0xc7, 0x87, 0x17, 0xbc, 0xa6, 0x1b, 0xf2, 0xbc, 0x00, 0xff,
    0x02, 0x3e, 0xdc, 0x9f, 0x28, 0xbd, 0x09, 0xd5, 0x44, 0x3d,
    0x36, 0x87, 0x6c, 0x3d, 0x7d, 0x43, 0x06, 0x3c, 0x1e, 0xd0,
    0x99, 0x3d, 0xb5, 0xc7, 0xc9, 0x3c, 0xd3, 0xfe, 0xed, 0xbd,
    0xa5, 0x7e, 0xb1, 0x3c, 0xb4, 0x9c, 0x23, 0xbd, 0x25, 0x7d,
    0x48, 0x3d, 0x43, 0xda, 0x21, 0xbd, 0xea, 0x21, 0xbf, 0xbd,
    0xa2, 0x89, 0x04, 0x3d, 0xba, 0x04, 0x83, 0xbb, 0xa6, 0xaf,
    0xa4, 0xbd, 0x95, 0xc7, 0xd0, 0x3b, 0x6a, 0x18, 0xa8, 0xbb,
    0x5b, 0x30, 0x81, 0xbb, 0x2f, 0xd1, 0x80, 0x3d, 0xb6, 0x56,
    0xf0, 0xbd, 0x47, 0x1f, 0xcc, 0x3c, 0x16, 0x90, 0xd8, 0x3d,
    0x67, 0x54, 0x89, 0x3c, 0x1a, 0xa1, 0xac, 0xbc, 0xfb, 0x39,
    0xcf, 0x3d, 0x13, 0xc6, 0x25, 0x3d, 0x02, 0x02, 0x5b, 0x3d,
    0xcf, 0x9d, 0xc5, 0xbc, 0x22, 0x0e, 0xb8, 0x3d, 0x35, 0x96,
    0x87, 0x3d, 0xe8, 0x46, 0x1f, 0xbe, 0xc9, 0x06, 0x6e, 0xbc,
    0xd1, 0x73, 0x85, 0x3c, 0x2c, 0x17, 0x8f, 0x3c, 0xcc, 0xc0,
    0x50, 0xbb, 0x7e, 0xfc, 0xcd, 0xbd, 0x57, 0x6f, 0x28, 0x3c,
    0x7a, 0x71, 0x6a, 0x3d, 0x2b, 0xbd, 0xde, 0xbd, 0x12, 0x6e,
    0x4d, 0x3d, 0x7a, 0xd4, 0xef, 0x3d, 0x5b, 0x08, 0x3e, 0xba,
    0x38, 0x36, 0x7c, 0x3c, 0x2e, 0x30, 0x1c, 0xbd, 0x99, 0xf1,
    0xe4, 0x3c, 0x65, 0xb2, 0xb2, 0x3c, 0x23, 0x34, 0xdc, 0xbc,
    0xad, 0x27, 0xae, 0xbd, 0xba, 0x2a, 0x77, 0x3c, 0x05, 0xc0,
    0x47, 0x3d, 0xac, 0x39, 0x64, 0x3d, 0x4f, 0xc0, 0x8d, 0x3d,
    0x4b, 0xff, 0x5f, 0x3d, 0x92, 0xa6, 0xe5, 0x3d, 0xd7, 0xe4,
    0xf5, 0xbd, 0x70, 0xc7, 0xd3, 0x3c, 0x03, 0xb1, 0x84, 0x3d,
    0xae, 0xb3, 0xa9, 0x3b, 0xc1, 0x26, 0xb6, 0xbd, 0x9f, 0x27,
    0x8f, 0xbd, 0xcb, 0xac, 0x7a, 0xbd, 0x32, 0xf4, 0x76, 0xbd,
    0x88, 0x5c, 0x86, 0xbb, 0xac, 0xaf, 0x82, 0x3c, 0xb1, 0xcf,
    0x23, 0xb8, 0xd4, 0xfc, 0x2a, 0xbd, 0x5d, 0x8b, 0x67, 0x3d,
    0x98, 0x6a, 0x65, 0xbd, 0xf4, 0x2c, 0x59, 0x3d, 0xef, 0x63,
    0xca, 0x3c, 0xb7, 0x9e, 0xe9, 0xbc, 0x2c, 0x8a, 0x03, 0x3e,
    0x39, 0xcc, 0x3a, 0x3d, 0x04, 0x06, 0x21, 0xbd, 0xf5, 0xc1,
    0x3e, 0x3d, 0x22, 0x57, 0xf9, 0x3c, 0x67, 0x63, 0xbc, 0xbd,
    0x68, 0x0e, 0x4b, 0xbd, 0x7c, 0x18, 0xef, 0xbd, 0x57, 0x26,
    0xa1, 0xbd, 0xfd, 0x77, 0xe0, 0xbc, 0xa5, 0x4c, 0x18, 0x3d,
    0xd5, 0x5c, 0x19, 0x3e, 0xa9, 0xe0, 0x98, 0xbd, 0x1b, 0xd4,
    0x8c, 0x3d, 0x51, 0x58, 0x60, 0xbc, 0xca, 0x20, 0x85, 0xbd,
    0x9c, 0x90, 0x7f, 0x3b, 0x9f, 0x97, 0xc1, 0x3d, 0x1b, 0x00,
    0x80, 0xbc, 0x65, 0xa1, 0x33, 0x3d, 0xf7, 0xaa, 0x43, 0x3d,
    0xbf, 0xbe, 0xdc, 0x3c, 0xed, 0x3d, 0xe3, 0x3c, 0x2a, 0x5c,
    0x01, 0x3d, 0x87, 0x21, 0xc7, 0x3c, 0x4f, 0xbe, 0xcd, 0x3d,
    0x28, 0x9c, 0x12, 0x3d, 0xd0, 0x74, 0x9b, 0x3d, 0xeb, 0xf2,
    0xbe, 0x3c, 0xf7, 0x6a, 0xe4, 0xbc, 0xb6, 0x6f, 0x62, 0xbd,
    0xa8, 0xf3, 0x3f, 0xbc, 0x25, 0xae, 0x8c, 0xbd, 0xc2, 0x0b,
    0x89, 0xbc, 0xe5, 0x5b, 0xc4, 0xba, 0xeb, 0xef, 0x84, 0xbd,
    0x2e, 0xbb, 0x4c, 0x3c, 0x22, 0xf9, 0xfe, 0x3c, 0x39, 0x99,
    0x2a, 0x3d, 0x9e, 0x38, 0x9c, 0xbd, 0x11, 0x08, 0x32, 0x3c,
    0xfa, 0xc8, 0x69, 0xbd, 0x40, 0x48, 0x93, 0x3d, 0x8c, 0x66,
    0x20, 0x3d, 0x61, 0xd1, 0x2a, 0x3d, 0x0c, 0xc1, 0x2e, 0x3d,
    0xc5, 0x9d, 0x3f, 0x3d, 0x4d, 0x8a, 0x0e, 0x3d, 0x3b, 0x4b,
    0x49, 0x3c, 0x9d, 0x28, 0x5f, 0x3d, 0xb0, 0x69, 0xde, 0xbb,
    0x9a, 0x95, 0x95, 0x3d, 0x8e, 0x45, 0xe5, 0x3c, 0x8f, 0xb2,
    0x01, 0x3e, 0x1e, 0xe8, 0xa5, 0x3d, 0x13, 0xe6, 0x60, 0xbd,
    0x6f, 0xc3, 0x37, 0xbd, 0x16, 0xa9, 0xb9, 0xbc, 0xbc, 0x7e,
    0x8a, 0x3d, 0xd6, 0xa4, 0x36, 0xbd, 0x1c, 0xeb, 0xae, 0xbb,
    0xa0, 0x8d, 0x9c, 0x3d, 0x3b, 0x2b, 0x4b, 0x39, 0x51, 0x93,
    0xf0, 0xbc, 0x51, 0x57, 0xa2, 0x3d, 0xf2, 0x67, 0x08, 0xbb,
    0xac, 0xce, 0x9d, 0xbc, 0x7f, 0xf6, 0x0c, 0x3d, 0xb5, 0x8a,
    0x91, 0xbd, 0x59, 0xef, 0x05, 0x3d, 0x21, 0x90, 0x46, 0x3d,
    0xeb, 0x49, 0x17, 0x3d, 0x13, 0xc8, 0x88, 0x3b, 0xc0, 0xdd,
    0xb1, 0x3c, 0xdf, 0x2a, 0xc0, 0x3d, 0x29, 0x20, 0x1e, 0x3c,
    0x61, 0xae, 0xc7, 0xbd, 0x6d, 0x4f, 0x8a, 0xbd, 0x29, 0x49,
    0xcb, 0x3c, 0xbe, 0x45, 0x31, 0xbd, 0xf3, 0xd5, 0x08, 0xbc,
    0xb6, 0x37, 0x22, 0x3d, 0x13, 0xcd, 0xcb, 0x3b, 0x99, 0xd8,
    0x12, 0xbd, 0x0f, 0xb9, 0x6c, 0xbc, 0x74, 0x3a, 0x14, 0xbd,
    0xcf, 0x88, 0x94, 0xbc, 0x9f, 0xd2, 0x10, 0x3c, 0x65, 0xef,
    0xb8, 0x3d, 0x41, 0x27, 0x53, 0x3c, 0x80, 0x97, 0x89, 0x3d,
    0x7d, 0xfc, 0xb0, 0xbc, 0xdf, 0xb0, 0x7b, 0xbc, 0xc1, 0x6a,
    0x32, 0x3d, 0x23, 0x25, 0x8f, 0x3c, 0x21, 0x55, 0xfc, 0x3c,
    0x81, 0xc8, 0x82, 0x3a, 0x61, 0x44, 0x97, 0x3d, 0x65, 0xa1,
    0xb8, 0xbb, 0xa7, 0x44, 0xc1, 0x3c, 0x8c, 0x23, 0xaf, 0xbd,
    0x0e, 0xda, 0x85, 0x3d, 0x56, 0x77, 0xf1, 0x3c, 0xc8, 0xd6,
    0x17, 0x3d, 0xbc, 0x94, 0x7b, 0xbd, 0xa0, 0x77, 0x58, 0x3d,
    0x40, 0x4d, 0x31, 0x3d, 0x7e, 0xd2, 0x75, 0xb9, 0x2c, 0xdc,
    0xa0, 0xbc, 0x08, 0xf0, 0x25, 0x3d, 0xc4, 0xde, 0xa9, 0x3c,
    0x45, 0xd0, 0xbe, 0xbc, 0x90, 0xab, 0x67, 0x3d, 0xc6, 0x82,
    0x15, 0x3b, 0x77, 0x81, 0x87, 0xbd, 0x0b, 0x76, 0xda, 0xbb,
    0xbd, 0x59, 0x09, 0xbd, 0x22, 0xc0, 0x08, 0x3d, 0x1e, 0x3d,
    0xa9, 0x3d, 0x4b, 0xaa, 0x58, 0xbd, 0xa0, 0x6c, 0xc3, 0x3c,
    0x3a, 0xb2, 0xa7, 0x3d, 0x64, 0x14, 0xf5, 0x3c, 0x05, 0x1d,
    0x0e, 0x3d, 0xb2, 0x2f, 0x37, 0x3c, 0x12, 0x42, 0x5b, 0x3d,
    0x6b, 0x70, 0x5c, 0x3b, 0x86, 0x7f, 0x96, 0xbd, 0xd5, 0x8c,
    0x74, 0x3d, 0xcd, 0xd3, 0x79, 0x3d, 0x93, 0x92, 0xe8, 0xbc,
    0x8b, 0x9a, 0xe8, 0x3c, 0xf3, 0x27, 0x96, 0xbd, 0xea, 0x29,
    0xa0, 0x3d, 0x69, 0x6d, 0x83, 0x3d, 0xa4, 0xcb, 0xf4, 0xbb,
    0xe0, 0x79, 0x06, 0xbd, 0x25, 0xc9, 0x62, 0xbc, 0x9f, 0xef,
    0x2e, 0xbd, 0x2a, 0x1c, 0xe3, 0x3d, 0x04, 0xa5, 0x64, 0x3d,
    0xa9, 0x41, 0x8d, 0x3d, 0x2b, 0x69, 0x42, 0x3c, 0xd2, 0x63,
    0x77, 0x3d, 0x4e, 0xbb, 0x9d, 0x3c, 0xc6, 0x4d, 0x0d, 0x3a,
    0xc1, 0xec, 0x17, 0xbd, 0x41, 0xce, 0xbb, 0xbc, 0x32, 0x79,
    0xb9, 0x3d, 0xf3, 0x01, 0xfd, 0x3c, 0x52, 0xd5, 0xab, 0x3c,
    0x83, 0xd5, 0x99, 0xbb, 0xc8, 0xcb, 0x00, 0x3d, 0x5f, 0x62,
    0x45, 0x3c, 0x6f, 0xe8, 0x81, 0x3d, 0xa4, 0x00, 0x9c, 0xbd,
    0xa1, 0xc6, 0x9e, 0x3d, 0xef, 0xc4, 0x12, 0x3d, 0xc3, 0x6c,
    0x9b, 0x39, 0xc8, 0x99, 0x77, 0x3d, 0x3e, 0xde, 0x08, 0xbd,
    0xe2, 0xaf, 0x80, 0xbd, 0x68, 0x7d, 0xd2, 0xb9, 0xaa, 0x47,
    0x7d, 0x3b, 0x17, 0xd1, 0xac, 0x3d, 0x97, 0xf8, 0xd2, 0xbc,
    0xec, 0x6d, 0x2b, 0xbd, 0x1a, 0x17, 0xa7, 0x3d, 0x72, 0x73,
    0x2d, 0x3d, 0x50, 0x1e, 0x04, 0x3c, 0xe8, 0xb9, 0x9f, 0x3c,
    0x9f, 0x7d, 0x2e, 0x3d, 0x89, 0x5b, 0x1e, 0x3c, 0x2d, 0xed,
    0x4a, 0x3d, 0x1d, 0x7a, 0x8d, 0x3c, 0x35, 0x21, 0x40, 0x3d,
    0x18, 0xc9, 0x18, 0x3c, 0xd0, 0x0b, 0x69, 0x3d, 0x0b, 0x06,
    0x56, 0x3d, 0xff, 0x00, 0xae, 0xbc, 0xed, 0x5a, 0xf6, 0x3c,
    0x85, 0x1d, 0x38, 0x3d, 0xca, 0xdf, 0x3a, 0x3d, 0x25, 0xd3,
    0x77, 0x3d, 0x10, 0xca, 0xf3, 0x3d, 0x06, 0x28, 0xb0, 0xbc,
    0xe6, 0xc1, 0xc4, 0x3d, 0x24, 0xf5, 0x9c, 0x3d, 0xea, 0x28,
    0x06, 0xbd, 0xa1, 0x33, 0x5a, 0x3d, 0x5d, 0xf7, 0x6a, 0xbd,
    0x60, 0x66, 0xae, 0x3d, 0xe4, 0x10, 0xc7, 0x3b, 0x0e, 0x82,
    0x8d, 0x3c, 0x5b, 0xa8, 0xd5, 0xbb, 0x49, 0x48, 0x43, 0x3d,
    0xdf, 0x20, 0x9c, 0xbb, 0x3d, 0x05, 0xe2, 0xbc, 0x84, 0x0e,
    0x9e, 0x3d, 0x55, 0xaa, 0x17, 0x3d, 0xc9, 0xa8, 0x8f, 0xbc,
    0xbd, 0xe2, 0x8f, 0x3c, 0x4a, 0x30, 0x80, 0x3d, 0x2a, 0xf4,
    0x85, 0x3d, 0xe9, 0xf4, 0xb2, 0x3c, 0x75, 0x8d, 0x6b, 0x3c,
    0x6a, 0x4d, 0x20, 0x3d, 0xb6, 0x0a, 0xf2, 0xbb, 0xfa, 0x52,
    0xa2, 0x3c, 0x0b, 0xa3, 0x82, 0x3d, 0x5f, 0x89, 0x97, 0x3d,
    0x8e, 0x36, 0x5f, 0x3c, 0x93, 0x53, 0x86, 0x3d, 0x49, 0x44,
    0x6a, 0x3d, 0x08, 0x9e, 0x14, 0x3d, 0xd0, 0x7e, 0x2d, 0x3d,
    0xaa, 0xb6, 0x73, 0x3c, 0xd7, 0x6b, 0xc7, 0x3c, 0x1b, 0xdf,
    0x45, 0x3d, 0x01, 0x85, 0xad, 0x3c, 0x35, 0x4f, 0x07, 0x3e,
    0xf1, 0x9b, 0x9b, 0x3d, 0xe2, 0xf5, 0x46, 0x3d, 0x9e, 0x8c,
    0x00, 0xbc, 0x9b, 0x99, 0x56, 0x3d, 0xdf, 0x5b, 0xbf, 0x3b,
    0x3e, 0x81, 0x34, 0x3d, 0xc0, 0x3c, 0x78, 0x3d, 0x44, 0xf8,
    0xd0, 0x3a, 0xc1, 0x60, 0x5f, 0x3d, 0x5b, 0x4e, 0x09, 0x3d,
    0x05, 0xad, 0xd9, 0x3d, 0x0a, 0x47, 0x67, 0x3c, 0xa4, 0x95,
    0x34, 0xbd, 0xb5, 0xc3, 0x52, 0xbc, 0xb2, 0x9c, 0x26, 0x3d,
    0xc1, 0x47, 0xb9, 0x3d, 0x0b, 0xeb, 0xaf, 0xbc, 0x76, 0x30,
    0x2d, 0x3a, 0x3f, 0x2c, 0x80, 0xbc, 0x8e, 0x4d, 0xb8, 0xbb,
    0x6a, 0xe6, 0xe3, 0x3c, 0x19, 0x69, 0xd8, 0xbc, 0x78, 0x49,
    0xce, 0x3c, 0x97, 0x88, 0x47, 0x3d, 0xd5, 0xef, 0x4d, 0xbd,
    0xad, 0xae, 0xaa, 0xbd, 0x7e, 0x66, 0xe6, 0x3a, 0xf1, 0xc1,
    0xcb, 0x3c, 0x0c, 0x24, 0x7b, 0xbc, 0x72, 0x5d, 0x5f, 0x3c,
    0x12, 0xf2, 0x0a, 0x3d, 0x45, 0xa3, 0xf1, 0x3d, 0x7e, 0x8d,
    0xcf, 0xb9, 0x5f, 0x5f, 0xf8, 0x3c, 0x3a, 0x4e, 0x37, 0x3c,
    0xa8, 0xad, 0xd1, 0x3d, 0xc6, 0xb9, 0x01, 0xbe, 0x69, 0xcb,
    0x6a, 0xbd, 0x5e, 0x1b, 0xe2, 0x3b, 0x9c, 0x23, 0x0f, 0x3e,
    0x17, 0x9c, 0xad, 0x3d, 0x5b, 0x92, 0x78, 0xbd, 0xef, 0xa3,
    0x82, 0x3d, 0x55, 0x6b, 0x9a, 0x3d, 0x45, 0x07, 0x37, 0xbe,
    0xfc, 0x4d, 0x2e, 0x3d, 0x1e, 0x88, 0x3f, 0x3d, 0x42, 0xee,
    0x64, 0x3d, 0x5b, 0xe0, 0x75, 0xbc, 0xec, 0xe2, 0x33, 0xbd,
    0xe3, 0x9d, 0xfe, 0x3a, 0x54, 0xad, 0x69, 0x3c, 0x76, 0xd5,
    0xdc, 0xbb, 0x8a, 0xb2, 0x28, 0x3d, 0x94, 0x52, 0x47, 0x3c,
    0x63, 0x1c, 0x22, 0x3c, 0xb3, 0x93, 0x95, 0xbc, 0x13, 0x43,
    0xa1, 0xbc, 0x88, 0x68, 0x87, 0x75, 0x58, 0x95, 0x86, 0x69,
    0x59, 0x47, 0x98, 0xa9, 0x87, 0x55, 0x57, 0x7b, 0x84, 0x86,
    0x75, 0x47, 0x7a, 0x77, 0x85, 0x66, 0x54, 0x44, 0x59, 0x57,
    0x75, 0x78, 0x89, 0x56, 0xd7, 0x77, 0x76, 0x66, 0x53, 0x75,
    0x7a, 0x87, 0x5b, 0x98, 0x6c, 0x55, 0x6a, 0x8b, 0x7a, 0x66,
    0xac, 0x8d, 0x79, 0x57, 0x7a, 0xcb, 0xb8, 0x89, 0xa8, 0xaa,
    0xca, 0xab, 0x88, 0xa9, 0x77, 0xbc, 0xba, 0x95, 0xa7, 0xbc,
    0xb6, 0x96, 0x75, 0xa9, 0xa8, 0x56, 0xcb, 0x98, 0x67, 0x54,
    0x3b, 0x67, 0x57, 0x55, 0x66, 0x57, 0x77, 0xba, 0x76, 0x97,
    0x69, 0x85, 0x86, 0x87, 0x89, 0x69, 0x77, 0xa8, 0x68, 0x77,
    0xab, 0x75, 0x57, 0x68, 0x64, 0x66, 0x87, 0x86, 0x96, 0x89,
    0x76, 0x6b, 0x59, 0xb6, 0x84, 0x39, 0x57, 0x68, 0x56, 0x86,
    0x55, 0x57, 0x78, 0x97, 0x66, 0x89, 0x77, 0x47, 0x88, 0xa3,
    0xa8, 0x77, 0x43, 0x94, 0x96, 0x85, 0x77, 0xa4, 0x87, 0x65,
    0x8c, 0x93, 0x69, 0x75, 0x65, 0x57, 0x89, 0x76, 0x68, 0x63,
    0x9d, 0xa9, 0x67, 0x7a, 0xaa, 0xcb, 0x97, 0x88, 0xb9, 0xab,
    0xb8, 0x7b, 0x9a, 0xb8, 0x88, 0xad, 0x99, 0xd5, 0xab, 0xac,
    0xc4, 0xa6, 0x35, 0x99, 0x53, 0x64, 0x99, 0x7b, 0x85, 0xd8,
    0x44, 0x59, 0x98, 0x69, 0x58, 0x6b, 0x84, 0x76, 0x45, 0xa7,
    0x98, 0x76, 0x66, 0x89, 0x65, 0x52, 0x57, 0x95, 0x52, 0x48,
    0x6a, 0x56, 0x77, 0x68, 0x84, 0x57, 0x63, 0xa9, 0x28, 0x33,
    0x96, 0x85, 0x64, 0x88, 0x99, 0x75, 0x54, 0x58, 0x93, 0x34,
    0x76, 0x84, 0x76, 0x85, 0x48, 0x76, 0x66, 0x34, 0x86, 0x24,
    0x86, 0x47, 0x86, 0x95, 0xa4, 0x79, 0x83, 0x75, 0x58, 0x68,
    0x68, 0x33, 0x99, 0x74, 0x99, 0x65, 0x79, 0x64, 0x45, 0x77,
    0x98, 0xb8, 0x87, 0x65, 0x76, 0x47, 0x48, 0x75, 0x8c, 0xa9,
    0xcd, 0x88, 0x89, 0xcd, 0x86, 0x7c, 0xb9, 0xac, 0x8a, 0x69,
    0x8a, 0x87, 0xaa, 0x9a, 0x85, 0x94, 0x78, 0x99, 0xc5, 0xab,
    0x7d, 0xaa, 0x87, 0x79, 0x45, 0x56, 0x97, 0x98, 0x96, 0x2a,
    0x94, 0x85, 0x57, 0xb7, 0x49, 0x77, 0x69, 0x8b, 0x68, 0x86,
    0x89, 0x57, 0xa7, 0xa8, 0x76, 0xa8, 0x66, 0x66, 0x8b, 0x97,
    0x87, 0x47, 0xc7, 0x39, 0x74, 0x55, 0x64, 0x6a, 0xa4, 0x96,
    0x68, 0x77, 0x73, 0x72, 0x68, 0x8a, 0x75, 0x64, 0x93, 0x58,
    0x2a, 0x74, 0x78, 0x46, 0x84, 0x3a, 0x75, 0x55, 0x67, 0x98,
    0x86, 0xa1, 0x97, 0x77, 0xac, 0x66, 0x84, 0x75, 0x76, 0x75,
    0x9a, 0x79, 0x76, 0x77, 0x89, 0x85, 0x89, 0x68, 0x76, 0x55,
    0x7a, 0x87, 0x8b, 0x78, 0x68, 0x7b, 0x69, 0xb8, 0xc8, 0x84,
    0x67, 0x98, 0xb4, 0xbb, 0xaa, 0x97, 0xa8, 0xab, 0xb8, 0x87,
    0x79, 0x88, 0x8b, 0x78, 0xc9, 0x8a, 0xcb, 0xa7, 0xc7, 0x99,
    0xaa, 0x98, 0x66, 0xc5, 0xa7, 0x75, 0xa9, 0x37, 0x85, 0x69,
    0x88, 0x77, 0x57, 0x83, 0x5a, 0x7a, 0x59, 0x58, 0xa8, 0x68,
    0x54, 0x35, 0x67, 0x43, 0x69, 0x34, 0x78, 0x36, 0x76, 0x96,
    0x53, 0x77, 0x52, 0x76, 0x47, 0x67, 0x56, 0x47, 0x55, 0x74,
    0x87, 0x57, 0x67, 0x56, 0x5a, 0x7a, 0x47, 0x61, 0x78, 0x4a,
    0x93, 0x42, 0xab, 0x97, 0x99, 0x98, 0x57, 0x78, 0x65, 0x3b,
    0x5a, 0x75, 0x85, 0xa5, 0xb9, 0x86, 0x78, 0xb6, 0x98, 0x85,
    0x87, 0x66, 0x77, 0x66, 0x45, 0x97, 0x65, 0x97, 0x94, 0x85,
    0x85, 0xa9, 0x79, 0x79, 0x59, 0xa8, 0x66, 0x99, 0x48, 0x6a,
    0x57, 0x67, 0xc7, 0xa8, 0x76, 0x97, 0x78, 0x7c, 0x94, 0x75,
    0x97, 0xb8, 0x75, 0x87, 0x6a, 0x8b, 0xc7, 0xb7, 0xa6, 0xaa,
    0x88, 0x9a, 0x67, 0x58, 0x97, 0x67, 0x84, 0x77, 0xd3, 0x64,
    0x44, 0x45, 0x78, 0x47, 0x87, 0x75, 0x54, 0x66, 0x86, 0xa5,
    0x98, 0x75, 0x44, 0x79, 0x76, 0x15, 0x53, 0x58, 0x37, 0x23,
    0x87, 0x74, 0x87, 0x69, 0xb7, 0x45, 0x55, 0x16, 0x57, 0x76,
    0x68, 0x63, 0x18, 0x77, 0x76, 0x35, 0x95, 0x86, 0x95, 0x86,
    0x85, 0x88, 0x79, 0x84, 0x57, 0x67, 0x89, 0x8a, 0x87, 0x78,
    0x8a, 0x78, 0x36, 0x68, 0x56, 0x78, 0x76, 0x76, 0x38, 0x89,
    0x98, 0x3a, 0x78, 0xa4, 0x99, 0x88, 0x98, 0xa9, 0x69, 0x76,
    0x83, 0x68, 0x79, 0x87, 0x66, 0xa4, 0x8b, 0xab, 0x8a, 0x78,
    0x59, 0x3a, 0x8a, 0x89, 0xc8, 0x89, 0x87, 0x6a, 0x9d, 0x97,
    0x86, 0x8c, 0xbb, 0xb8, 0x74, 0x58, 0x7b, 0x76, 0x88, 0x69,
    0x66, 0x98, 0x79, 0x5b, 0xb8, 0x54, 0xa7, 0x75, 0x66, 0x86,
    0x58, 0x68, 0xa9, 0x59, 0x74, 0x66, 0x37, 0x33, 0x44, 0x46,
    0x7a, 0x56, 0x86, 0x25, 0x4a, 0x6a, 0x57, 0x55, 0x53, 0x49,
    0x68, 0x56, 0x87, 0x84, 0x87, 0x44, 0x77, 0x79, 0x47, 0x57,
    0x66, 0x9a, 0xb7, 0x46, 0x79, 0x7b, 0x46, 0x85, 0x66, 0x8b,
    0xa6, 0x57, 0x57, 0x75, 0x8b, 0x87, 0x76, 0x84, 0x79, 0x55,
    0x7b, 0x97, 0x79, 0xa8, 0xa6, 0x66, 0xb8, 0x88, 0x64, 0x55,
    0x75, 0x87, 0x57, 0x58, 0x88, 0x76, 0x88, 0x98, 0x7b, 0x59,
    0x76, 0x99, 0x55, 0x36, 0xb8, 0x9a, 0xb9, 0x77, 0x88, 0x7a,
    0x97, 0x76, 0xa9, 0x98, 0x6a, 0x87, 0x68, 0x97, 0x9b, 0xaa,
    0x88, 0x65, 0x97, 0xa7, 0x67, 0x94, 0x6c, 0x78, 0x86, 0x57,
    0x62, 0x66, 0xa5, 0x66, 0x95, 0x57, 0x78, 0x38, 0x98, 0x57,
    0x46, 0x28, 0x2c, 0x98, 0x46, 0x38, 0x77, 0x73, 0x77, 0x36,
    0x76, 0x48, 0x65, 0x8a, 0x89, 0x75, 0x63, 0x75, 0x8a, 0x38,
    0x87, 0x63, 0x7a, 0x87, 0x94, 0x57, 0x67, 0x2a, 0x45, 0x58,
    0x57, 0x99, 0x58, 0x88, 0xb7, 0x59, 0x47, 0x46, 0x64, 0x76,
    0x76, 0x63, 0x67, 0x87, 0x85, 0x56, 0x65, 0x9c, 0x4a, 0x76,
    0x57, 0x88, 0x69, 0x27, 0x88, 0x86, 0x78, 0xa7, 0x87, 0x64,
    0x85, 0xa4, 0x76, 0xa4, 0x87, 0x58, 0x79, 0x75, 0xb9, 0x69,
    0x76, 0x53, 0x58, 0x79, 0x88, 0xac, 0x98, 0xb9, 0x8b, 0x78,
    0x79, 0xa8, 0xa4, 0x7c, 0x57, 0x8a, 0x87, 0xbb, 0x67, 0x73,
    0x66, 0x5a, 0x69, 0x64, 0x79, 0x87, 0x79, 0x88, 0x55, 0x66,
    0x59, 0x44, 0x64, 0x86, 0x49, 0x65, 0xb3, 0x68, 0x58, 0x88,
    0x34, 0x74, 0x57, 0x45, 0x68, 0x52, 0x7a, 0x87, 0x59, 0x3a,
    0x94, 0x43, 0x3a, 0x58, 0x56, 0x77, 0x59, 0x66, 0x56, 0x79,
    0x85, 0x75, 0x58, 0xa8, 0x57, 0x58, 0x5a, 0x97, 0x89, 0x39,
    0x8a, 0x77, 0x82, 0x57, 0x86, 0x62, 0x86, 0x59, 0x86, 0x8a,
    0x45, 0x79, 0xb6, 0x52, 0x99, 0x75, 0x99, 0x79, 0x96, 0x67,
    0x79, 0xa9, 0x69, 0x45, 0x84, 0x87, 0x88, 0x73, 0x87, 0x98,
    0xbc, 0x56, 0xba, 0x87, 0x74, 0x9a, 0xc7, 0x98, 0x85, 0x99,
    0x64, 0x8b, 0x98, 0xb8, 0x79, 0x86, 0x99, 0xaa, 0x77, 0x94,
    0x86, 0x9a, 0x6a, 0x77, 0x56, 0xaa, 0x45, 0x67, 0x73, 0x86,
    0xc7, 0x59, 0x97, 0x48, 0x9b, 0x67, 0x52, 0x63, 0x48, 0x88,
    0x32, 0x46, 0xb2, 0x26, 0x77, 0x95, 0x78, 0x93, 0x7a, 0x64,
    0x48, 0x44, 0x46, 0x57, 0x59, 0x76, 0x44, 0x58, 0x73, 0x55,
    0x98, 0x79, 0x68, 0x94, 0x77, 0x87, 0x66, 0x55, 0x88, 0x56,
    0x56, 0x66, 0x46, 0x55, 0x58, 0x86, 0x48, 0x99, 0x86, 0x83,
    0xc7, 0x55, 0x69, 0x89, 0x55, 0x64, 0x86, 0x78, 0x57, 0x76,
    0x79, 0x48, 0x99, 0x83, 0xb9, 0x76, 0x98, 0x75, 0x85, 0x89,
    0xa6, 0x67, 0x8a, 0xba, 0x88, 0x36, 0xa8, 0x88, 0x88, 0x68,
    0x6c, 0x87, 0x77, 0x88, 0x9b, 0x78, 0x75, 0xa7, 0x7a, 0x85,
    0x69, 0x74, 0x58, 0x63, 0x66, 0x69, 0x76, 0x44, 0x28, 0x79,
    0x77, 0x68, 0x56, 0x74, 0x46, 0xad, 0x59, 0x86, 0x4a, 0x35,
    0xb2, 0x67, 0xa7, 0x95, 0x83, 0x66, 0x75, 0x97, 0x86, 0x53,
    0xa7, 0x86, 0x77, 0x73, 0x47, 0x55, 0x37, 0x76, 0x67, 0x52,
    0x46, 0x67, 0x9a, 0x37, 0x98, 0x4a, 0x74, 0x53, 0x58, 0x78,
    0x56, 0x83, 0x43, 0x68, 0x64, 0x55, 0x68, 0x56, 0x55, 0x53,
    0x47, 0x47, 0xa5, 0x83, 0x57, 0x58, 0x58, 0x78, 0x74, 0x26,
    0x26, 0x48, 0x47, 0x67, 0xbc, 0x9a, 0xb6, 0x56, 0x98, 0x59,
    0x58, 0x43, 0x9b, 0x7c, 0xa7, 0x84, 0x9b, 0x89, 0x99, 0x98,
    0x8c, 0xba, 0x8b, 0x64, 0xa7, 0x86, 0x9a, 0x98, 0xa5, 0xa7,
    0xa9, 0x69, 0x8c, 0x57, 0x8a, 0x98, 0x78, 0x74, 0x56, 0x94,
    0x77, 0x87, 0x35, 0x77, 0x86, 0x48, 0x74, 0x36, 0x7a, 0x47,
    0x96, 0x43, 0x78, 0x98, 0xb9, 0x66, 0x97, 0x88, 0x55, 0x99,
    0x45, 0x4a, 0x72, 0x47, 0x52, 0x85, 0xa3, 0x7a, 0x68, 0x66,
    0xa6, 0x64, 0x48, 0x48, 0x5a, 0x86, 0x88, 0x75, 0x45, 0x47,
    0x77, 0x46, 0x66, 0x63, 0x99, 0x56, 0x78, 0x32, 0x56, 0x86,
    0x86, 0x51, 0x97, 0x47, 0x87, 0x56, 0x37, 0x17, 0x96, 0x58,
    0x85, 0x75, 0x65, 0x64, 0x75, 0x55, 0x73, 0x67, 0x88, 0x57,
    0x88, 0x45, 0x8c, 0x9a, 0x56, 0x67, 0x59, 0x7c, 0xb9, 0x79,
    0xac, 0x9c, 0x9a, 0x85, 0x75, 0x89, 0xbc, 0x9a, 0x78, 0x99,
    0x9b, 0x88, 0x98, 0x97, 0x77, 0x88, 0x95, 0x85, 0xa6, 0x88,
    0x98, 0x89, 0x77, 0x76, 0x8b, 0x54, 0x86, 0x29, 0x85, 0x5a,
    0x82, 0x84, 0xa2, 0x75, 0x8a, 0x79, 0x39, 0x49, 0x67, 0x86,
    0x85, 0x85, 0x46, 0x67, 0xa8, 0x58, 0x74, 0x62, 0x57, 0x66,
    0x75, 0x56, 0x86, 0x84, 0x76, 0x57, 0x86, 0x56, 0x86, 0x57,
    0x55, 0x65, 0x44, 0x97, 0x53, 0x76, 0x98, 0x45, 0x65, 0x36,
    0x57, 0x37, 0x58, 0x17, 0x49, 0x44, 0x76, 0x77, 0x63, 0x75,
    0x76, 0x28, 0x3a, 0x54, 0x54, 0x64, 0x63, 0x44, 0x85, 0x76,
    0xb7, 0x27, 0x57, 0x57, 0x67, 0x83, 0x9b, 0x98, 0x78, 0xa7,
    0x9a, 0x8b, 0xa5, 0x75, 0x78, 0x7a, 0x88, 0xca, 0xa9, 0x77,
    0x98, 0x89, 0x95, 0xc8, 0xac, 0xb9, 0x67, 0xd4, 0x86, 0x88,
    0x75, 0xb8, 0x95, 0x7a, 0x87, 0x63, 0x8a, 0x7a, 0x59, 0x58,
    0x59, 0x8a, 0x67, 0x9a, 0x6b, 0xa5, 0xb8, 0x65, 0xa2, 0x68,
    0x26, 0x85, 0x68, 0x66, 0x86, 0x78, 0x37, 0x98, 0x83, 0x59,
    0x56, 0x88, 0x27, 0x87, 0x95, 0x88, 0x62, 0x69, 0x97, 0x76,
    0x78, 0x78, 0x33, 0x67, 0x76, 0x37, 0x56, 0x7a, 0x58, 0x87,
    0x74, 0x06, 0x66, 0x48, 0x56, 0x47, 0x66, 0x56, 0xa7, 0x46,
    0x54, 0x65, 0x69, 0x67, 0x96, 0x76, 0x86, 0x25, 0x23, 0x66,
    0x38, 0x55, 0x65, 0x87, 0x76, 0x84, 0x86, 0x86, 0x95, 0x18,
    0xd8, 0x59, 0x49, 0x73, 0xab, 0x7a, 0xa8, 0x98, 0x87, 0x88,
    0x98, 0xc7, 0x99, 0xa5, 0xa9, 0x6a, 0x86, 0x48, 0xb9, 0xcb,
    0xaa, 0x47, 0x56, 0xa8, 0xa2, 0xb6, 0x37, 0xab, 0x84, 0x68,
    0x67, 0x69, 0xcb, 0x76, 0x67, 0x77, 0x97, 0x55, 0x97, 0x39,
    0x66, 0x74, 0x89, 0x66, 0x65, 0x76, 0x57, 0x65, 0x78, 0x77,
    0x74, 0x51, 0x49, 0x85, 0x53, 0x44, 0x47, 0x46, 0xb4, 0x68,
    0x34, 0x66, 0x76, 0xa4, 0x44, 0x44, 0xa5, 0x53, 0xa7, 0x57,
    0x27, 0x45, 0x43, 0xa5, 0x28, 0x66, 0x47, 0x76, 0x58, 0x45,
    0x56, 0x65, 0x63, 0x67, 0x67, 0x44, 0x75, 0x43, 0x77, 0x47,
    0x84, 0x96, 0x97, 0x74, 0x96, 0x52, 0x67, 0x5a, 0x4b, 0x56,
    0xa9, 0x99, 0x77, 0x45, 0x68, 0xcb, 0xa8, 0x87, 0x95, 0x8a,
    0x9b, 0x97, 0xbb, 0xa7, 0x7c, 0x96, 0xda, 0xc8, 0xac, 0x8a,
    0xfb, 0xc9, 0x86, 0x59, 0x96, 0x55, 0x6b, 0xb8, 0x86, 0x99,
    0xa4, 0x87, 0x9a, 0x79, 0x6b, 0x78, 0x5a, 0x89, 0x86, 0x87,
    0x7a, 0x75, 0x79, 0x9a, 0x43, 0x73, 0x75, 0x73, 0x77, 0x33,
    0x35, 0x69, 0x73, 0x64, 0x55, 0x27, 0x57, 0xa7, 0xa4, 0x76,
    0x88, 0x7b, 0x55, 0x29, 0x5a, 0x66, 0x56, 0xa8, 0xb5, 0x87,
    0x86, 0x16, 0x74, 0x56, 0x57, 0x45, 0x56, 0x45, 0x48, 0x45,
    0x74, 0x73, 0x75, 0x68, 0x76, 0x58, 0x78, 0x93, 0x74, 0x3a,
    0x77, 0x64, 0x86, 0x68, 0x59, 0x73, 0x85, 0x59, 0x96, 0x64,
    0x7b, 0x67, 0x79, 0x83, 0xba, 0x78, 0x88, 0x92, 0x9b, 0xac,
    0xac, 0x85, 0x6c, 0x8a, 0x5a, 0xa7, 0x89, 0x75, 0x7a, 0x9a,
    0xba, 0x97, 0x66, 0xa9, 0x79, 0x98, 0xab, 0xa6, 0x69, 0x78,
    0x7a, 0x55, 0x48, 0xb7, 0xba, 0xb7, 0x95, 0x5a, 0x7a, 0x89,
    0x85, 0x78, 0x98, 0x56, 0x56, 0x85, 0x89, 0x64, 0x97, 0x68,
    0x45, 0x88, 0x86, 0x74, 0x66, 0x66, 0x49, 0x65, 0x88, 0x66,
    0x45, 0x65, 0x5a, 0x78, 0x68, 0x48, 0x89, 0x84, 0x73, 0x57,
    0x38, 0x48, 0x46, 0x65, 0x76, 0x58, 0x76, 0x86, 0x75, 0x47,
    0x66, 0x36, 0x56, 0x34, 0xa4, 0x7a, 0x87, 0x75, 0x76, 0x86,
    0x8a, 0x95, 0xd5, 0x5a, 0x9a, 0x75, 0x79, 0x8a, 0xb6, 0xb5,
    0xa7, 0x66, 0x97, 0x85, 0x9a, 0x8a, 0x9a, 0x63, 0x86, 0x77,
    0xa6, 0x86, 0x86, 0x86, 0x59, 0x77, 0x85, 0x38, 0x7b, 0x98,
    0x88, 0x85, 0x88, 0x8b, 0xb9, 0x2a, 0x97, 0xab, 0xdb, 0xa6,
    0xab, 0x87, 0x84, 0x87, 0x68, 0x78, 0xb6, 0xa8, 0xb5, 0x96,
    0x63, 0x77, 0x98, 0x87, 0x74, 0x76, 0x94, 0x66, 0x88, 0x31,
    0x34, 0xb6, 0x59, 0x35, 0x5b, 0x37, 0xa8, 0x87, 0x65, 0x67,
    0x43, 0x65, 0x64, 0x78, 0x99, 0x69, 0x66, 0x36, 0x87, 0xa2,
    0x5a, 0x84, 0x93, 0xa6, 0x66, 0x57, 0x76, 0x97, 0x66, 0x44,
    0x35, 0x15, 0x76, 0x44, 0x68, 0x68, 0x64, 0x57, 0xa7, 0x3b,
    0x48, 0x93, 0x7b, 0x49, 0x4a, 0x64, 0xa6, 0x87, 0xb9, 0x62,
    0x8a, 0x7c, 0x9a, 0x96, 0x9a, 0xa6, 0xbb, 0xc1, 0x88, 0x88,
    0x86, 0xa3, 0x99, 0x47, 0x57, 0xba, 0x97, 0x88, 0x7a, 0xb9,
    0x47, 0x78, 0x57, 0x89, 0x8a, 0x66, 0x55, 0x97, 0x88, 0x95,
    0x56, 0x58, 0x7b, 0x87, 0x86, 0x68, 0x97, 0x58, 0x96, 0x59,
    0x52, 0x99, 0x68, 0x76, 0x6b, 0x75, 0x54, 0xb9, 0x65, 0xd7,
    0x64, 0x78, 0x85, 0x59, 0xb6, 0x7b, 0x66, 0x74, 0x49, 0x85,
    0x56, 0x66, 0x58, 0x57, 0x37, 0x7f, 0x3e, 0xbe, 0x82,
    0x55, 0x1a, 0xbe, 0xfc, 0x3e, 0xf3, 0xbd, 0x92, 0x2c,
    0xb8, 0xbd, 0x2d, 0x50, 0x87, 0xbd, 0x55, 0x78, 0x2d,
    0xbd, 0xf2, 0xe1, 0xa6, 0xbc, 0xb2, 0x53, 0x42, 0x3b,
    0x6d, 0xda, 0xd2, 0x3c, 0xd9, 0x7d, 0x49, 0x3d, 0xba,
    0xf7, 0x91, 0x3d, 0xed, 0xdf, 0xc3, 0x3d, 0x7a, 0xb8,
    0xf9, 0x3d, 0x5c, 0xa6, 0x1d, 0x3e, 0xfc, 0xab, 0x43,
    0x3e, 0x5b, 0x41, 0x5f, 0x3e, 0xe9, 0x50, 0x82, 0x3c
  };

  return AI_HANDLE_PTR(s_cnn_k3_f8_l3_weights);
}

